/* Copyright 2020 The TensorFlow Authors. All Rights Reserved.
Licensed under the Apache License, Version 2.0 (the "License");
you may not use this file except in compliance with the License.
You may obtain a copy of the License at
    http://www.apache.org/licenses/LICENSE-2.0
Unless required by applicable law or agreed to in writing, software
distributed under the License is distributed on an "AS IS" BASIS,
WITHOUT WARRANTIES OR CONDITIONS OF ANY KIND, either express or implied.
See the License for the specific language governing permissions and
limitations under the License.
==============================================================================*/

unsigned char g_magic_wand_model_data[] = {
  0x20, 0x00, 0x00, 0x00, 0x54, 0x46, 0x4c, 0x33, 0x00, 0x00, 0x00, 0x00,
  0x14, 0x00, 0x20, 0x00, 0x1c, 0x00, 0x18, 0x00, 0x14, 0x00, 0x10, 0x00,
  0x0c, 0x00, 0x00, 0x00, 0x08, 0x00, 0x04, 0x00, 0x14, 0x00, 0x00, 0x00,
  0x1c, 0x00, 0x00, 0x00, 0x8c, 0x00, 0x00, 0x00, 0x0c, 0x01, 0x00, 0x00,
  0x4c, 0x08, 0x00, 0x00, 0x5c, 0x08, 0x00, 0x00, 0x18, 0x13, 0x00, 0x00,
  0x03, 0x00, 0x00, 0x00, 0x01, 0x00, 0x00, 0x00, 0x10, 0x00, 0x00, 0x00,
  0x00, 0x00, 0x0a, 0x00, 0x10, 0x00, 0x0c, 0x00, 0x08, 0x00, 0x04, 0x00,
  0x0a, 0x00, 0x00, 0x00, 0x0c, 0x00, 0x00, 0x00, 0x1c, 0x00, 0x00, 0x00,
  0x38, 0x00, 0x00, 0x00, 0x0f, 0x00, 0x00, 0x00, 0x73, 0x65, 0x72, 0x76,
  0x69, 0x6e, 0x67, 0x5f, 0x64, 0x65, 0x66, 0x61, 0x75, 0x6c, 0x74, 0x00,
  0x01, 0x00, 0x00, 0x00, 0x04, 0x00, 0x00, 0x00, 0x74, 0xff, 0xff, 0xff,
  0x0c, 0x00, 0x00, 0x00, 0x04, 0x00, 0x00, 0x00, 0x07, 0x00, 0x00, 0x00,
  0x64, 0x65, 0x6e, 0x73, 0x65, 0x5f, 0x31, 0x00, 0x01, 0x00, 0x00, 0x00,
  0x04, 0x00, 0x00, 0x00, 0xa2, 0xf7, 0xff, 0xff, 0x04, 0x00, 0x00, 0x00,
  0x07, 0x00, 0x00, 0x00, 0x69, 0x6e, 0x70, 0x75, 0x74, 0x5f, 0x32, 0x00,
  0x03, 0x00, 0x00, 0x00, 0x5c, 0x00, 0x00, 0x00, 0x2c, 0x00, 0x00, 0x00,
  0x04, 0x00, 0x00, 0x00, 0xb8, 0xff, 0xff, 0xff, 0x10, 0x00, 0x00, 0x00,
  0x04, 0x00, 0x00, 0x00, 0x13, 0x00, 0x00, 0x00, 0x43, 0x4f, 0x4e, 0x56,
  0x45, 0x52, 0x53, 0x49, 0x4f, 0x4e, 0x5f, 0x4d, 0x45, 0x54, 0x41, 0x44,
  0x41, 0x54, 0x41, 0x00, 0xdc, 0xff, 0xff, 0xff, 0x0f, 0x00, 0x00, 0x00,
  0x04, 0x00, 0x00, 0x00, 0x13, 0x00, 0x00, 0x00, 0x6d, 0x69, 0x6e, 0x5f,
  0x72, 0x75, 0x6e, 0x74, 0x69, 0x6d, 0x65, 0x5f, 0x76, 0x65, 0x72, 0x73,
  0x69, 0x6f, 0x6e, 0x00, 0x08, 0x00, 0x0c, 0x00, 0x08, 0x00, 0x04, 0x00,
  0x08, 0x00, 0x00, 0x00, 0x0e, 0x00, 0x00, 0x00, 0x04, 0x00, 0x00, 0x00,
  0x13, 0x00, 0x00, 0x00, 0x6d, 0x69, 0x6e, 0x5f, 0x72, 0x75, 0x6e, 0x74,
  0x69, 0x6d, 0x65, 0x5f, 0x76, 0x65, 0x72, 0x73, 0x69, 0x6f, 0x6e, 0x00,
  0x11, 0x00, 0x00, 0x00, 0x3c, 0x07, 0x00, 0x00, 0x34, 0x07, 0x00, 0x00,
  0x1c, 0x07, 0x00, 0x00, 0x04, 0x07, 0x00, 0x00, 0xd4, 0x06, 0x00, 0x00,
  0x84, 0x06, 0x00, 0x00, 0xf4, 0x01, 0x00, 0x00, 0xc4, 0x01, 0x00, 0x00,
  0xdc, 0x00, 0x00, 0x00, 0xd4, 0x00, 0x00, 0x00, 0xcc, 0x00, 0x00, 0x00,
  0xc4, 0x00, 0x00, 0x00, 0xbc, 0x00, 0x00, 0x00, 0xb4, 0x00, 0x00, 0x00,
  0x94, 0x00, 0x00, 0x00, 0x74, 0x00, 0x00, 0x00, 0x04, 0x00, 0x00, 0x00,
  0x82, 0xf8, 0xff, 0xff, 0x04, 0x00, 0x00, 0x00, 0x60, 0x00, 0x00, 0x00,
  0x0c, 0x00, 0x00, 0x00, 0x08, 0x00, 0x0e, 0x00, 0x08, 0x00, 0x04, 0x00,
  0x08, 0x00, 0x00, 0x00, 0x10, 0x00, 0x00, 0x00, 0x28, 0x00, 0x00, 0x00,
  0x00, 0x00, 0x06, 0x00, 0x08, 0x00, 0x04, 0x00, 0x06, 0x00, 0x00, 0x00,
  0x04, 0x00, 0x00, 0x00, 0x01, 0x00, 0x00, 0x00, 0xeb, 0x03, 0x00, 0x00,
  0x0c, 0x00, 0x18, 0x00, 0x14, 0x00, 0x10, 0x00, 0x0c, 0x00, 0x04, 0x00,
  0x0c, 0x00, 0x00, 0x00, 0x14, 0xcd, 0x19, 0x0b, 0x2c, 0x5b, 0x17, 0xde,
  0x01, 0x00, 0x00, 0x00, 0x02, 0x00, 0x00, 0x00, 0x04, 0x00, 0x00, 0x00,
  0x06, 0x00, 0x00, 0x00, 0x32, 0x2e, 0x31, 0x38, 0x2e, 0x30, 0x00, 0x00,
  0xee, 0xf8, 0xff, 0xff, 0x04, 0x00, 0x00, 0x00, 0x10, 0x00, 0x00, 0x00,
  0x00, 0x00, 0x00, 0x00, 0x00, 0x00, 0x00, 0x00, 0x00, 0x00, 0x00, 0x00,
  0x00, 0x00, 0x00, 0x00, 0x0a, 0xf9, 0xff, 0xff, 0x04, 0x00, 0x00, 0x00,
  0x10, 0x00, 0x00, 0x00, 0x31, 0x2e, 0x31, 0x34, 0x2e, 0x30, 0x00, 0x00,
  0x00, 0x00, 0x00, 0x00, 0x00, 0x00, 0x00, 0x00, 0xa8, 0xef, 0xff, 0xff,
  0xac, 0xef, 0xff, 0xff, 0xb0, 0xef, 0xff, 0xff, 0xb4, 0xef, 0xff, 0xff,
  0xb8, 0xef, 0xff, 0xff, 0x3a, 0xf9, 0xff, 0xff, 0x04, 0x00, 0x00, 0x00,
  0xd8, 0x00, 0x00, 0x00, 0xee, 0xff, 0x11, 0x02, 0xf8, 0xb6, 0x0e, 0x13,
  0xe3, 0x81, 0x06, 0x05, 0x0a, 0x01, 0x30, 0x06, 0x19, 0xd6, 0xc1, 0x03,
  0xdd, 0x1a, 0xed, 0x03, 0x25, 0xf2, 0x07, 0xd6, 0x06, 0xb3, 0x98, 0x31,
  0xfb, 0xee, 0xd1, 0x37, 0x4c, 0xc0, 0xdb, 0xb1, 0xf8, 0xc6, 0xef, 0xb9,
  0x81, 0x22, 0xde, 0x1e, 0x98, 0x0b, 0x31, 0xe8, 0xcf, 0x2e, 0xdd, 0x1b,
  0x54, 0x0e, 0x29, 0x00, 0x49, 0x14, 0x99, 0xad, 0x3d, 0x16, 0x0d, 0xf3,
  0x2f, 0x29, 0xb8, 0xc5, 0xbf, 0xe1, 0x01, 0xdb, 0xd3, 0x2d, 0xf5, 0xcb,
  0x81, 0xf4, 0x0e, 0xfc, 0x10, 0x17, 0x3a, 0xcb, 0x0d, 0xa2, 0x2b, 0x14,
  0xed, 0x17, 0xfb, 0xc6, 0xb6, 0xe6, 0xfe, 0x42, 0xfd, 0x81, 0xfc, 0xfb,
  0xcb, 0xc8, 0xe2, 0x41, 0xa5, 0xf4, 0x3b, 0x09, 0x23, 0xf2, 0x25, 0xee,
  0xe4, 0x81, 0xe4, 0x27, 0x14, 0xd2, 0xee, 0x32, 0xe3, 0xf1, 0xaa, 0x0a,
  0xb3, 0xda, 0xe2, 0x6f, 0xd5, 0x01, 0xdf, 0x15, 0xc6, 0x7f, 0xe3, 0xa7,
  0xea, 0x1d, 0x0a, 0xe6, 0x1d, 0xf2, 0x99, 0x02, 0x00, 0x49, 0xe0, 0x03,
  0x08, 0xf2, 0x12, 0xfd, 0xeb, 0x23, 0x10, 0x9d, 0x24, 0x23, 0xc4, 0x16,
  0x10, 0x06, 0x14, 0xf7, 0xf5, 0xf7, 0xd2, 0xf7, 0xf2, 0x07, 0xc6, 0xdc,
  0xdd, 0x0a, 0x01, 0xf9, 0x81, 0x25, 0xda, 0x25, 0x85, 0x16, 0xf5, 0x2b,
  0xf0, 0xea, 0xe5, 0x28, 0xfe, 0xc7, 0xf3, 0xfa, 0xf8, 0x14, 0x2d, 0xe5,
  0xc7, 0x21, 0x18, 0x2d, 0x22, 0x11, 0xdc, 0x6d, 0xd3, 0x81, 0xf7, 0x3e,
  0x6a, 0xe4, 0x21, 0x24, 0x1e, 0xfa, 0xff, 0xff, 0x04, 0x00, 0x00, 0x00,
  0x20, 0x00, 0x00, 0x00, 0x68, 0xfe, 0xff, 0xff, 0xd9, 0x0f, 0x00, 0x00,
  0xcb, 0xf8, 0xff, 0xff, 0x5d, 0x0a, 0x00, 0x00, 0xdc, 0x08, 0x00, 0x00,
  0xb7, 0x00, 0x00, 0x00, 0x9e, 0x0b, 0x00, 0x00, 0xec, 0x05, 0x00, 0x00,
  0x4a, 0xfa, 0xff, 0xff, 0x04, 0x00, 0x00, 0x00, 0x80, 0x04, 0x00, 0x00,
  0x1b, 0x05, 0xe5, 0x22, 0x1d, 0x28, 0xc9, 0xef, 0x0b, 0xdd, 0xe1, 0x2a,
  0x3d, 0x2d, 0xd2, 0xdb, 0x22, 0xf9, 0xf1, 0x21, 0x2c, 0x24, 0xd5, 0xf2,
  0x1a, 0x98, 0xcd, 0x2a, 0x4b, 0x24, 0xc6, 0xeb, 0x2b, 0x81, 0xbe, 0x34,
  0x50, 0x2e, 0xc6, 0xe1, 0x27, 0xc6, 0xd3, 0x1d, 0x4a, 0x24, 0xce, 0xe4,
  0x20, 0x01, 0xdc, 0x15, 0x34, 0x19, 0xcd, 0xf0, 0x23, 0xbc, 0xbc, 0x2b,
  0x32, 0x1e, 0xe1, 0xe6, 0x2b, 0x03, 0xe5, 0x12, 0x2e, 0x19, 0xdc, 0xf1,
  0xe5, 0x08, 0x16, 0xe2, 0xc8, 0xef, 0x10, 0x16, 0xde, 0x0e, 0x56, 0xda,
  0x81, 0xd9, 0x27, 0x30, 0x02, 0x04, 0x24, 0xf1, 0xb9, 0xed, 0x37, 0x2a,
  0xd1, 0x2f, 0x2a, 0xd4, 0xaf, 0xe3, 0x4d, 0x23, 0xd5, 0x18, 0x41, 0xcf,
  0x86, 0xc6, 0x46, 0x43, 0xdd, 0x38, 0x2a, 0xe5, 0xb8, 0xe6, 0x40, 0x29,
  0xdf, 0x2c, 0x21, 0xe3, 0xbd, 0xcb, 0x32, 0x26, 0xbc, 0x3c, 0x45, 0xc8,
  0xa6, 0xe5, 0x40, 0x21, 0xdf, 0x3a, 0x18, 0xe5, 0xf4, 0xf9, 0x4e, 0x1b,
  0xe4, 0xfb, 0x0e, 0xe2, 0xd8, 0xef, 0x0b, 0x14, 0xde, 0x1a, 0x54, 0xdb,
  0x81, 0xde, 0x2b, 0x2b, 0x04, 0x11, 0x25, 0xf2, 0xb9, 0xf0, 0x2f, 0x28,
  0xda, 0x33, 0x29, 0xda, 0xb4, 0xe5, 0x48, 0x22, 0xd7, 0xf6, 0x31, 0xd5,
  0x9c, 0xca, 0x40, 0x3d, 0xda, 0x28, 0x1f, 0xe8, 0xcb, 0xe9, 0x3c, 0x23,
  0xdf, 0x25, 0x13, 0xe9, 0xd1, 0xd1, 0x28, 0x1f, 0xc4, 0x2c, 0x42, 0xce,
  0xaa, 0xe6, 0x3d, 0x25, 0xe0, 0x3a, 0x12, 0xe3, 0xfa, 0xf0, 0x49, 0x1b,
  0x1e, 0xfb, 0xe1, 0x24, 0x21, 0x29, 0xcb, 0xef, 0x0a, 0xdb, 0xde, 0x2d,
  0x43, 0x31, 0xd0, 0xd8, 0x24, 0xf9, 0xf1, 0x22, 0x2b, 0x25, 0xd5, 0xf2,
  0x1a, 0x8c, 0xc8, 0x2e, 0x55, 0x25, 0xc7, 0xeb, 0x30, 0x81, 0xbd, 0x36,
  0x55, 0x32, 0xc2, 0xdf, 0x2b, 0xc6, 0xcf, 0x1e, 0x4e, 0x25, 0xcc, 0xe4,
  0x1f, 0xf7, 0xdb, 0x15, 0x3b, 0x16, 0xd0, 0xf2, 0x2c, 0xc5, 0xba, 0x2b,
  0x32, 0x22, 0xdb, 0xe2, 0x2b, 0x00, 0xe7, 0x10, 0x30, 0x17, 0xda, 0xf2,
  0x1f, 0xf9, 0xe3, 0x25, 0x22, 0x27, 0xc7, 0xee, 0x09, 0xd9, 0xde, 0x2e,
  0x46, 0x35, 0xce, 0xd5, 0x26, 0xf8, 0xf1, 0x22, 0x2c, 0x25, 0xd6, 0xf4,
  0x18, 0x94, 0xc9, 0x2c, 0x55, 0x22, 0xbf, 0xe7, 0x32, 0x81, 0xbf, 0x3c,
  0x51, 0x2f, 0xc0, 0xe0, 0x20, 0xb4, 0xcb, 0x20, 0x5a, 0x27, 0xcd, 0xe3,
  0x22, 0xf8, 0xd3, 0x18, 0x3b, 0x19, 0xcc, 0xef, 0x28, 0xbf, 0xc2, 0x26,
  0x30, 0x1f, 0xe5, 0xea, 0x29, 0xfc, 0xe7, 0x0f, 0x34, 0x1f, 0xdb, 0xed,
  0xe9, 0x12, 0x1a, 0xf2, 0xd6, 0xf1, 0x1f, 0x0e, 0xe0, 0x0b, 0x65, 0xdf,
  0x81, 0xdc, 0x2b, 0x30, 0x0d, 0xef, 0x2d, 0xee, 0xb0, 0xf5, 0x1d, 0x21,
  0xde, 0x38, 0x3d, 0xdb, 0xa3, 0xe2, 0x4d, 0x1b, 0xd0, 0x13, 0x4d, 0xd0,
  0x92, 0xcb, 0x3c, 0x38, 0xd9, 0x2b, 0x38, 0xd8, 0xa2, 0xea, 0x36, 0x1d,
  0xd0, 0x0a, 0x29, 0xdf, 0xb0, 0xda, 0x19, 0x17, 0xbc, 0x30, 0x55, 0xd6,
  0x9d, 0xeb, 0x33, 0x20, 0xd5, 0xe9, 0x30, 0xe1, 0xcf, 0xf4, 0xf1, 0x1c,
  0xde, 0xde, 0xf5, 0xe4, 0xf7, 0xf2, 0x05, 0x12, 0xdc, 0x07, 0x53, 0xdc,
  0x81, 0xd9, 0x28, 0x31, 0x03, 0x17, 0x28, 0xee, 0xb6, 0xee, 0x2f, 0x2a,
  0xd9, 0x2a, 0x22, 0xda, 0xc3, 0xe4, 0x42, 0x24, 0xdb, 0xe9, 0x36, 0xc9,
  0x8f, 0xc2, 0x50, 0x44, 0xe2, 0x5d, 0x2b, 0xe2, 0xc0, 0xe0, 0x52, 0x22,
  0xe0, 0x26, 0x1b, 0xe7, 0xc8, 0xcb, 0x11, 0x18, 0xb0, 0x26, 0x4c, 0xcb,
  0x94, 0xe6, 0x34, 0x20, 0xd1, 0x1f, 0x12, 0xeb, 0xf8, 0xee, 0x3c, 0x1f,
  0x20, 0xf4, 0xe1, 0x2b, 0x24, 0x2d, 0xcc, 0xef, 0x12, 0xc1, 0xdb, 0x37,
  0x4e, 0x3d, 0xca, 0xcf, 0x2a, 0xf2, 0xeb, 0x2b, 0x40, 0x2a, 0xc8, 0xf0,
  0x1f, 0x9b, 0xbf, 0x30, 0x53, 0x2b, 0xb9, 0xe8, 0x32, 0x81, 0xae, 0x40,
  0x63, 0x30, 0xb3, 0xdb, 0x31, 0xc3, 0xd1, 0x20, 0x4e, 0x2d, 0xc5, 0xda,
  0x29, 0x05, 0xd6, 0x16, 0x3c, 0x19, 0xc4, 0xf1, 0x2e, 0xc0, 0xbc, 0x2e,
  0x2c, 0x2c, 0xe5, 0xe3, 0x32, 0xff, 0xdd, 0x19, 0x35, 0x20, 0xce, 0xec,
  0x21, 0xed, 0xdc, 0x2c, 0x29, 0x32, 0xcd, 0xed, 0x0c, 0xd8, 0xdc, 0x33,
  0x4b, 0x3a, 0xc9, 0xd2, 0x29, 0xf3, 0xef, 0x26, 0x31, 0x28, 0xd2, 0xf3,
  0x1d, 0x81, 0xc1, 0x30, 0x5e, 0x28, 0xbd, 0xe9, 0x3b, 0x85, 0xae, 0x3e,
  0x63, 0x36, 0xb2, 0xd9, 0x2c, 0xb2, 0xca, 0x23, 0x5c, 0x2c, 0xc6, 0xdc,
  0x27, 0xf9, 0xd2, 0x1b, 0x41, 0x1f, 0xc5, 0xec, 0x2f, 0xb9, 0xb6, 0x31,
  0x34, 0x27, 0xdd, 0xe2, 0x2e, 0xff, 0xe1, 0x14, 0x39, 0x1c, 0xd5, 0xf0,
  0x1a, 0x07, 0xe7, 0x20, 0x1b, 0x26, 0xc9, 0xf0, 0x05, 0xdc, 0xe3, 0x28,
  0x3c, 0x2e, 0xd6, 0xdd, 0x25, 0xfb, 0xf4, 0x1e, 0x25, 0x21, 0xdb, 0xf5,
  0x17, 0x9b, 0xce, 0x28, 0x49, 0x1c, 0xca, 0xed, 0x2c, 0x81, 0xc1, 0x34,
  0x51, 0x2a, 0xc6, 0xe2, 0x1b, 0xc0, 0xd1, 0x1d, 0x4d, 0x27, 0xd4, 0xe6,
  0x1f, 0xfa, 0xda, 0x13, 0x35, 0x13, 0xd5, 0xf4, 0x24, 0xc7, 0xc6, 0x22,
  0x2f, 0x1b, 0xe0, 0xea, 0x20, 0xfe, 0xec, 0x0b, 0x30, 0x1c, 0xde, 0xee,
  0x1d, 0xf9, 0xe4, 0x25, 0x22, 0x2d, 0xd6, 0xed, 0x0a, 0xd8, 0xde, 0x2c,
  0x44, 0x30, 0xd3, 0xd9, 0x23, 0xfa, 0xf0, 0x20, 0x2c, 0x25, 0xda, 0xf4,
  0x17, 0x91, 0xc9, 0x2b, 0x54, 0x21, 0xc7, 0xeb, 0x2c, 0x81, 0xc3, 0x35,
  0x51, 0x30, 0xbf, 0xdf, 0x24, 0xb8, 0xce, 0x1f, 0x53, 0x24, 0xcf, 0xe4,
  0x20, 0x00, 0xdb, 0x14, 0x39, 0x17, 0xd0, 0xf2, 0x2d, 0xc6, 0xc2, 0x29,
  0x2f, 0x1d, 0xdd, 0xe7, 0x26, 0xf9, 0xe3, 0x11, 0x37, 0x1a, 0xdb, 0xef,
  0x27, 0xff, 0xda, 0x2b, 0x26, 0x2f, 0xc7, 0xee, 0x0f, 0xd9, 0xde, 0x35,
  0x46, 0x3b, 0xcb, 0xd1, 0x29, 0xf6, 0xed, 0x28, 0x37, 0x26, 0xca, 0xf3,
  0x19, 0x81, 0xbd, 0x34, 0x66, 0x2e, 0xbf, 0xe7, 0x38, 0x83, 0xb8, 0x3c,
  0x58, 0x2f, 0xb8, 0xdd, 0x2d, 0xc1, 0xcd, 0x23, 0x53, 0x36, 0xc4, 0xd8,
  0x26, 0xf1, 0xd5, 0x1a, 0x43, 0x18, 0xc6, 0xef, 0x2d, 0xc3, 0xb4, 0x2d,
  0x33, 0x25, 0xde, 0xe4, 0x34, 0x02, 0xe5, 0x16, 0x35, 0x1d, 0xd3, 0xef,
  0xe3, 0xf4, 0x10, 0xe2, 0xd6, 0xf0, 0x09, 0x15, 0xdf, 0x20, 0x56, 0xd9,
  0x81, 0xdb, 0x2b, 0x30, 0x03, 0x07, 0x24, 0xf2, 0xb9, 0xeb, 0x2c, 0x2b,
  0xd4, 0x36, 0x2b, 0xd7, 0xb2, 0xe5, 0x4a, 0x23, 0xd6, 0x09, 0x38, 0xd3,
  0x8e, 0xc7, 0x47, 0x3f, 0xe1, 0x4e, 0x30, 0xe5, 0xb4, 0xe8, 0x3c, 0x28,
  0xde, 0x1f, 0x1a, 0xe5, 0xc7, 0xcc, 0x2e, 0x25, 0xc2, 0x49, 0x4a, 0xca,
  0x9e, 0xe3, 0x3e, 0x24, 0xde, 0x35, 0x14, 0xe6, 0xf9, 0xf9, 0x47, 0x1a,
  0x23, 0xfc, 0xdd, 0x2c, 0x27, 0x2f, 0xca, 0xed, 0x0c, 0xc8, 0xdb, 0x36,
  0x4d, 0x3a, 0xc7, 0xd1, 0x2c, 0x03, 0xed, 0x27, 0x35, 0x2a, 0xca, 0xf2,
  0x1d, 0x8d, 0xc0, 0x31, 0x58, 0x2d, 0xc1, 0xe7, 0x3a, 0x81, 0xb2, 0x40,
  0x5e, 0x35, 0xc0, 0xdb, 0x29, 0xaa, 0xcb, 0x23, 0x59, 0x2f, 0xc9, 0xdd,
  0x29, 0xe8, 0xd3, 0x19, 0x43, 0x14, 0xc9, 0xf2, 0x2e, 0xb9, 0xb3, 0x2d,
  0x3f, 0x22, 0xdf, 0xe3, 0x35, 0x02, 0xdd, 0x15, 0x3c, 0x21, 0xd2, 0xec,
  0x21, 0x0b, 0xe3, 0x24, 0x1b, 0x2a, 0xc5, 0xef, 0x05, 0xd7, 0xe0, 0x2d,
  0x45, 0x34, 0xce, 0xd7, 0x29, 0x03, 0xf5, 0x21, 0x25, 0x24, 0xd2, 0xf4,
  0x1b, 0x8a, 0xc6, 0x2d, 0x56, 0x21, 0xc6, 0xea, 0x33, 0x81, 0xbb, 0x38,
  0x56, 0x31, 0xbc, 0xdd, 0x21, 0xbb, 0xcf, 0x1f, 0x4e, 0x2d, 0xcf, 0xe1,
  0x22, 0xee, 0xd5, 0x17, 0x3c, 0x18, 0xcb, 0xf1, 0x2f, 0xc5, 0xbd, 0x27,
  0x31, 0x1e, 0xe0, 0xe8, 0x2b, 0x00, 0xe4, 0x0f, 0x3a, 0x20, 0xd9, 0xec,
  0x1f, 0x00, 0xe2, 0x24, 0x1e, 0x2d, 0xbf, 0xee, 0x09, 0xc5, 0xdd, 0x32,
  0x46, 0x37, 0xcb, 0xd6, 0x2a, 0xfa, 0xf1, 0x24, 0x2a, 0x29, 0xd3, 0xf2,
  0x17, 0x81, 0xc2, 0x2d, 0x5b, 0x23, 0xb8, 0xe7, 0x33, 0x92, 0xad, 0x42,
  0x6c, 0x31, 0xbf, 0xde, 0x21, 0xb3, 0xd0, 0x25, 0x57, 0x2a, 0xca, 0xe2,
  0x26, 0xee, 0xd3, 0x1b, 0x3d, 0x17, 0xc9, 0xf0, 0x2a, 0xc3, 0xbd, 0x2a,
  0x35, 0x28, 0xe1, 0xe4, 0x2b, 0xff, 0xeb, 0x0d, 0x2e, 0x1f, 0xdc, 0xed,
  0xd6, 0xfe, 0xff, 0xff, 0x04, 0x00, 0x00, 0x00, 0x40, 0x00, 0x00, 0x00,
  0x65, 0x0b, 0x00, 0x00, 0xf3, 0x00, 0x00, 0x00, 0x05, 0x01, 0x00, 0x00,
  0x37, 0x0b, 0x00, 0x00, 0xb1, 0x0b, 0x00, 0x00, 0xba, 0x13, 0x00, 0x00,
  0x72, 0x06, 0x00, 0x00, 0x5b, 0x0b, 0x00, 0x00, 0x40, 0x0b, 0x00, 0x00,
  0xd4, 0x0a, 0x00, 0x00, 0x35, 0x0a, 0x00, 0x00, 0x16, 0x0a, 0x00, 0x00,
  0x7a, 0x00, 0x00, 0x00, 0x58, 0x0a, 0x00, 0x00, 0x62, 0x0b, 0x00, 0x00,
  0x61, 0x0b, 0x00, 0x00, 0x22, 0xff, 0xff, 0xff, 0x04, 0x00, 0x00, 0x00,
  0x20, 0x00, 0x00, 0x00, 0xac, 0x5c, 0x7f, 0xb1, 0x9c, 0x7f, 0x71, 0x92,
  0xd3, 0xa4, 0xe9, 0xb0, 0x42, 0xb8, 0x8b, 0x9a, 0x3f, 0x85, 0x8a, 0x47,
  0x3b, 0xbc, 0xae, 0x63, 0x7f, 0x3a, 0x71, 0x6d, 0x85, 0x70, 0x24, 0x23,
  0x4e, 0xff, 0xff, 0xff, 0x04, 0x00, 0x00, 0x00, 0x08, 0x00, 0x00, 0x00,
  0x2e, 0x0c, 0x00, 0x00, 0xa7, 0xf3, 0xff, 0xff, 0x62, 0xff, 0xff, 0xff,
  0x04, 0x00, 0x00, 0x00, 0x08, 0x00, 0x00, 0x00, 0x01, 0x00, 0x00, 0x00,
  0x02, 0x00, 0x00, 0x00, 0xf8, 0xf5, 0xff, 0xff, 0xfc, 0xf5, 0xff, 0xff,
  0x0f, 0x00, 0x00, 0x00, 0x4d, 0x4c, 0x49, 0x52, 0x20, 0x43, 0x6f, 0x6e,
  0x76, 0x65, 0x72, 0x74, 0x65, 0x64, 0x2e, 0x00, 0x01, 0x00, 0x00, 0x00,
  0x14, 0x00, 0x00, 0x00, 0x00, 0x00, 0x0e, 0x00, 0x18, 0x00, 0x14, 0x00,
  0x10, 0x00, 0x0c, 0x00, 0x08, 0x00, 0x04, 0x00, 0x0e, 0x00, 0x00, 0x00,
  0x14, 0x00, 0x00, 0x00, 0x1c, 0x00, 0x00, 0x00, 0x70, 0x01, 0x00, 0x00,
  0x74, 0x01, 0x00, 0x00, 0x78, 0x01, 0x00, 0x00, 0x04, 0x00, 0x00, 0x00,
  0x6d, 0x61, 0x69, 0x6e, 0x00, 0x00, 0x00, 0x00, 0x05, 0x00, 0x00, 0x00,
  0x0c, 0x01, 0x00, 0x00, 0xbc, 0x00, 0x00, 0x00, 0x88, 0x00, 0x00, 0x00,
  0x40, 0x00, 0x00, 0x00, 0x04, 0x00, 0x00, 0x00, 0x92, 0xff, 0xff, 0xff,
  0x1c, 0x00, 0x00, 0x00, 0x00, 0x00, 0x00, 0x09, 0x1c, 0x00, 0x00, 0x00,
  0x20, 0x00, 0x00, 0x00, 0x03, 0x00, 0x00, 0x00, 0x00, 0x00, 0x06, 0x00,
  0x08, 0x00, 0x04, 0x00, 0x06, 0x00, 0x00, 0x00, 0x00, 0x00, 0x80, 0x3f,
  0x01, 0x00, 0x00, 0x00, 0x0c, 0x00, 0x00, 0x00, 0x01, 0x00, 0x00, 0x00,
  0x0b, 0x00, 0x00, 0x00, 0xca, 0xff, 0xff, 0xff, 0x14, 0x00, 0x00, 0x00,
  0x00, 0x00, 0x00, 0x08, 0x10, 0x00, 0x00, 0x00, 0x14, 0x00, 0x00, 0x00,
  0x02, 0x00, 0x00, 0x00, 0xb8, 0xf6, 0xff, 0xff, 0x01, 0x00, 0x00, 0x00,
  0x0b, 0x00, 0x00, 0x00, 0x03, 0x00, 0x00, 0x00, 0x0a, 0x00, 0x00, 0x00,
  0x03, 0x00, 0x00, 0x00, 0x02, 0x00, 0x00, 0x00, 0x00, 0x00, 0x0e, 0x00,
  0x18, 0x00, 0x14, 0x00, 0x10, 0x00, 0x0c, 0x00, 0x0b, 0x00, 0x04, 0x00,
  0x0e, 0x00, 0x00, 0x00, 0x14, 0x00, 0x00, 0x00, 0x00, 0x00, 0x00, 0x1b,
  0x10, 0x00, 0x00, 0x00, 0x14, 0x00, 0x00, 0x00, 0x01, 0x00, 0x00, 0x00,
  0xfc, 0xf6, 0xff, 0xff, 0x01, 0x00, 0x00, 0x00, 0x0a, 0x00, 0x00, 0x00,
  0x02, 0x00, 0x00, 0x00, 0x09, 0x00, 0x00, 0x00, 0x01, 0x00, 0x00, 0x00,
  0xc2, 0xff, 0xff, 0xff, 0x10, 0x00, 0x00, 0x00, 0x00, 0x00, 0x00, 0x01,
  0x18, 0x00, 0x00, 0x00, 0x1c, 0x00, 0x00, 0x00, 0xb4, 0xff, 0xff, 0xff,
  0x00, 0x00, 0x00, 0x01, 0x02, 0x00, 0x00, 0x00, 0x02, 0x00, 0x00, 0x00,
  0x01, 0x00, 0x00, 0x00, 0x09, 0x00, 0x00, 0x00, 0x03, 0x00, 0x00, 0x00,
  0x08, 0x00, 0x00, 0x00, 0x05, 0x00, 0x00, 0x00, 0x04, 0x00, 0x00, 0x00,
  0x00, 0x00, 0x0e, 0x00, 0x14, 0x00, 0x00, 0x00, 0x10, 0x00, 0x0c, 0x00,
  0x0b, 0x00, 0x04, 0x00, 0x0e, 0x00, 0x00, 0x00, 0x1c, 0x00, 0x00, 0x00,
  0x00, 0x00, 0x00, 0x01, 0x24, 0x00, 0x00, 0x00, 0x28, 0x00, 0x00, 0x00,
  0x0c, 0x00, 0x10, 0x00, 0x00, 0x00, 0x0c, 0x00, 0x08, 0x00, 0x07, 0x00,
  0x0c, 0x00, 0x00, 0x00, 0x00, 0x00, 0x00, 0x01, 0x02, 0x00, 0x00, 0x00,
  0x02, 0x00, 0x00, 0x00, 0x01, 0x00, 0x00, 0x00, 0x08, 0x00, 0x00, 0x00,
  0x03, 0x00, 0x00, 0x00, 0x00, 0x00, 0x00, 0x00, 0x07, 0x00, 0x00, 0x00,
  0x06, 0x00, 0x00, 0x00, 0x01, 0x00, 0x00, 0x00, 0x0c, 0x00, 0x00, 0x00,
  0x01, 0x00, 0x00, 0x00, 0x00, 0x00, 0x00, 0x00, 0x0d, 0x00, 0x00, 0x00,
  0x80, 0x08, 0x00, 0x00, 0x24, 0x08, 0x00, 0x00, 0x9c, 0x07, 0x00, 0x00,
  0x28, 0x07, 0x00, 0x00, 0x14, 0x06, 0x00, 0x00, 0xf0, 0x04, 0x00, 0x00,
  0x3c, 0x04, 0x00, 0x00, 0x78, 0x03, 0x00, 0x00, 0x8c, 0x02, 0x00, 0x00,
  0xa0, 0x01, 0x00, 0x00, 0x14, 0x01, 0x00, 0x00, 0x80, 0x00, 0x00, 0x00,
  0x04, 0x00, 0x00, 0x00, 0xca, 0xf7, 0xff, 0xff, 0x00, 0x00, 0x00, 0x01,
  0x18, 0x00, 0x00, 0x00, 0x20, 0x00, 0x00, 0x00, 0x3c, 0x00, 0x00, 0x00,
  0x0d, 0x00, 0x00, 0x00, 0x00, 0x00, 0x00, 0x09, 0x50, 0x00, 0x00, 0x00,
  0x02, 0x00, 0x00, 0x00, 0xff, 0xff, 0xff, 0xff, 0x02, 0x00, 0x00, 0x00,
  0xac, 0xf7, 0xff, 0xff, 0x08, 0x00, 0x00, 0x00, 0x10, 0x00, 0x00, 0x00,
  0x01, 0x00, 0x00, 0x00, 0x80, 0xff, 0xff, 0xff, 0xff, 0xff, 0xff, 0xff,
  0x01, 0x00, 0x00, 0x00, 0x00, 0x00, 0x80, 0x3b, 0x19, 0x00, 0x00, 0x00,
  0x53, 0x74, 0x61, 0x74, 0x65, 0x66, 0x75, 0x6c, 0x50, 0x61, 0x72, 0x74,
  0x69, 0x74, 0x69, 0x6f, 0x6e, 0x65, 0x64, 0x43, 0x61, 0x6c, 0x6c, 0x3a,
  0x30, 0x00, 0x00, 0x00, 0x02, 0x00, 0x00, 0x00, 0x01, 0x00, 0x00, 0x00,
  0x02, 0x00, 0x00, 0x00, 0x42, 0xf8, 0xff, 0xff, 0x00, 0x00, 0x00, 0x01,
  0x18, 0x00, 0x00, 0x00, 0x20, 0x00, 0x00, 0x00, 0x40, 0x00, 0x00, 0x00,
  0x0c, 0x00, 0x00, 0x00, 0x00, 0x00, 0x00, 0x09, 0x68, 0x00, 0x00, 0x00,
  0x02, 0x00, 0x00, 0x00, 0xff, 0xff, 0xff, 0xff, 0x02, 0x00, 0x00, 0x00,
  0x24, 0xf8, 0xff, 0xff, 0x08, 0x00, 0x00, 0x00, 0x14, 0x00, 0x00, 0x00,
  0x01, 0x00, 0x00, 0x00, 0xfc, 0xff, 0xff, 0xff, 0xff, 0xff, 0xff, 0xff,
  0x00, 0x00, 0x00, 0x00, 0x01, 0x00, 0x00, 0x00, 0x9f, 0x2c, 0x9d, 0x3d,
  0x2e, 0x00, 0x00, 0x00, 0x6d, 0x6f, 0x64, 0x65, 0x6c, 0x5f, 0x31, 0x2f,
  0x64, 0x65, 0x6e, 0x73, 0x65, 0x5f, 0x31, 0x2f, 0x4d, 0x61, 0x74, 0x4d,
  0x75, 0x6c, 0x3b, 0x6d, 0x6f, 0x64, 0x65, 0x6c, 0x5f, 0x31, 0x2f, 0x64,
  0x65, 0x6e, 0x73, 0x65, 0x5f, 0x31, 0x2f, 0x42, 0x69, 0x61, 0x73, 0x41,
  0x64, 0x64, 0x00, 0x00, 0x02, 0x00, 0x00, 0x00, 0x01, 0x00, 0x00, 0x00,
  0x02, 0x00, 0x00, 0x00, 0xd2, 0xf8, 0xff, 0xff, 0x00, 0x00, 0x00, 0x01,
  0x18, 0x00, 0x00, 0x00, 0x20, 0x00, 0x00, 0x00, 0x40, 0x00, 0x00, 0x00,
  0x0b, 0x00, 0x00, 0x00, 0x00, 0x00, 0x00, 0x09, 0x60, 0x00, 0x00, 0x00,
  0x02, 0x00, 0x00, 0x00, 0xff, 0xff, 0xff, 0xff, 0x10, 0x00, 0x00, 0x00,
  0xb4, 0xf8, 0xff, 0xff, 0x08, 0x00, 0x00, 0x00, 0x14, 0x00, 0x00, 0x00,
  0x01, 0x00, 0x00, 0x00, 0x80, 0xff, 0xff, 0xff, 0xff, 0xff, 0xff, 0xff,
  0x00, 0x00, 0x00, 0x00, 0x01, 0x00, 0x00, 0x00, 0x64, 0x3f, 0x16, 0x3c,
  0x27, 0x00, 0x00, 0x00, 0x6d, 0x6f, 0x64, 0x65, 0x6c, 0x5f, 0x31, 0x2f,
  0x67, 0x6c, 0x6f, 0x62, 0x61, 0x6c, 0x5f, 0x61, 0x76, 0x65, 0x72, 0x61,
  0x67, 0x65, 0x5f, 0x70, 0x6f, 0x6f, 0x6c, 0x69, 0x6e, 0x67, 0x32, 0x64,
  0x5f, 0x31, 0x2f, 0x4d, 0x65, 0x61, 0x6e, 0x00, 0x02, 0x00, 0x00, 0x00,
  0x01, 0x00, 0x00, 0x00, 0x10, 0x00, 0x00, 0x00, 0x5a, 0xf9, 0xff, 0xff,
  0x00, 0x00, 0x00, 0x01, 0x18, 0x00, 0x00, 0x00, 0x28, 0x00, 0x00, 0x00,
  0x44, 0x00, 0x00, 0x00, 0x0a, 0x00, 0x00, 0x00, 0x00, 0x00, 0x00, 0x09,
  0xb8, 0x00, 0x00, 0x00, 0x04, 0x00, 0x00, 0x00, 0xff, 0xff, 0xff, 0xff,
  0x08, 0x00, 0x00, 0x00, 0x08, 0x00, 0x00, 0x00, 0x10, 0x00, 0x00, 0x00,
  0x44, 0xf9, 0xff, 0xff, 0x08, 0x00, 0x00, 0x00, 0x10, 0x00, 0x00, 0x00,
  0x01, 0x00, 0x00, 0x00, 0x80, 0xff, 0xff, 0xff, 0xff, 0xff, 0xff, 0xff,
  0x01, 0x00, 0x00, 0x00, 0x96, 0x0d, 0xa4, 0x3d, 0x7a, 0x00, 0x00, 0x00,
  0x6d, 0x6f, 0x64, 0x65, 0x6c, 0x5f, 0x31, 0x2f, 0x61, 0x63, 0x74, 0x69,
  0x76, 0x61, 0x74, 0x69, 0x6f, 0x6e, 0x5f, 0x34, 0x2f, 0x52, 0x65, 0x6c,
  0x75, 0x3b, 0x6d, 0x6f, 0x64, 0x65, 0x6c, 0x5f, 0x31, 0x2f, 0x62, 0x61,
  0x74, 0x63, 0x68, 0x5f, 0x6e, 0x6f, 0x72, 0x6d, 0x61, 0x6c, 0x69, 0x7a,
  0x61, 0x74, 0x69, 0x6f, 0x6e, 0x5f, 0x34, 0x2f, 0x46, 0x75, 0x73, 0x65,
  0x64, 0x42, 0x61, 0x74, 0x63, 0x68, 0x4e, 0x6f, 0x72, 0x6d, 0x56, 0x33,
  0x3b, 0x3b, 0x6d, 0x6f, 0x64, 0x65, 0x6c, 0x5f, 0x31, 0x2f, 0x63, 0x6f,
  0x6e, 0x76, 0x32, 0x64, 0x5f, 0x34, 0x2f, 0x42, 0x69, 0x61, 0x73, 0x41,
  0x64, 0x64, 0x3b, 0x6d, 0x6f, 0x64, 0x65, 0x6c, 0x5f, 0x31, 0x2f, 0x63,
  0x6f, 0x6e, 0x76, 0x32, 0x64, 0x5f, 0x34, 0x2f, 0x43, 0x6f, 0x6e, 0x76,
  0x32, 0x44, 0x00, 0x00, 0x04, 0x00, 0x00, 0x00, 0x01, 0x00, 0x00, 0x00,
  0x08, 0x00, 0x00, 0x00, 0x08, 0x00, 0x00, 0x00, 0x10, 0x00, 0x00, 0x00,
  0x42, 0xfa, 0xff, 0xff, 0x00, 0x00, 0x00, 0x01, 0x18, 0x00, 0x00, 0x00,
  0x28, 0x00, 0x00, 0x00, 0x44, 0x00, 0x00, 0x00, 0x09, 0x00, 0x00, 0x00,
  0x00, 0x00, 0x00, 0x09, 0xb8, 0x00, 0x00, 0x00, 0x04, 0x00, 0x00, 0x00,
  0xff, 0xff, 0xff, 0xff, 0x10, 0x00, 0x00, 0x00, 0x10, 0x00, 0x00, 0x00,
  0x08, 0x00, 0x00, 0x00, 0x2c, 0xfa, 0xff, 0xff, 0x08, 0x00, 0x00, 0x00,
  0x10, 0x00, 0x00, 0x00, 0x01, 0x00, 0x00, 0x00, 0x80, 0xff, 0xff, 0xff,
  0xff, 0xff, 0xff, 0xff, 0x01, 0x00, 0x00, 0x00, 0x77, 0x68, 0xcd, 0x3c,
  0x7b, 0x00, 0x00, 0x00, 0x6d, 0x6f, 0x64, 0x65, 0x6c, 0x5f, 0x31, 0x2f,
  0x61, 0x63, 0x74, 0x69, 0x76, 0x61, 0x74, 0x69, 0x6f, 0x6e, 0x5f, 0x33,
  0x2f, 0x52, 0x65, 0x6c, 0x75, 0x3b, 0x6d, 0x6f, 0x64, 0x65, 0x6c, 0x5f,
  0x31, 0x2f, 0x62, 0x61, 0x74, 0x63, 0x68, 0x5f, 0x6e, 0x6f, 0x72, 0x6d,
  0x61, 0x6c, 0x69, 0x7a, 0x61, 0x74, 0x69, 0x6f, 0x6e, 0x5f, 0x33, 0x2f,
  0x46, 0x75, 0x73, 0x65, 0x64, 0x42, 0x61, 0x74, 0x63, 0x68, 0x4e, 0x6f,
  0x72, 0x6d, 0x56, 0x33, 0x3b, 0x3b, 0x6d, 0x6f, 0x64, 0x65, 0x6c, 0x5f,
  0x31, 0x2f, 0x63, 0x6f, 0x6e, 0x76, 0x32, 0x64, 0x5f, 0x33, 0x2f, 0x42,
  0x69, 0x61, 0x73, 0x41, 0x64, 0x64, 0x3b, 0x6d, 0x6f, 0x64, 0x65, 0x6c,
  0x5f, 0x31, 0x2f, 0x63, 0x6f, 0x6e, 0x76, 0x32, 0x64, 0x5f, 0x33, 0x2f,
  0x43, 0x6f, 0x6e, 0x76, 0x32, 0x44, 0x31, 0x00, 0x04, 0x00, 0x00, 0x00,
  0x01, 0x00, 0x00, 0x00, 0x10, 0x00, 0x00, 0x00, 0x10, 0x00, 0x00, 0x00,
  0x08, 0x00, 0x00, 0x00, 0x82, 0xfb, 0xff, 0xff, 0x00, 0x00, 0x00, 0x01,
  0x14, 0x00, 0x00, 0x00, 0x88, 0x00, 0x00, 0x00, 0x08, 0x00, 0x00, 0x00,
  0x00, 0x00, 0x00, 0x09, 0x94, 0x00, 0x00, 0x00, 0xfc, 0xfa, 0xff, 0xff,
  0x08, 0x00, 0x00, 0x00, 0x4c, 0x00, 0x00, 0x00, 0x08, 0x00, 0x00, 0x00,
  0x00, 0x00, 0x00, 0x00, 0x00, 0x00, 0x00, 0x00, 0x00, 0x00, 0x00, 0x00,
  0x00, 0x00, 0x00, 0x00, 0x00, 0x00, 0x00, 0x00, 0x00, 0x00, 0x00, 0x00,
  0x00, 0x00, 0x00, 0x00, 0x00, 0x00, 0x00, 0x00, 0x00, 0x00, 0x00, 0x00,
  0x00, 0x00, 0x00, 0x00, 0x00, 0x00, 0x00, 0x00, 0x00, 0x00, 0x00, 0x00,
  0x00, 0x00, 0x00, 0x00, 0x00, 0x00, 0x00, 0x00, 0x00, 0x00, 0x00, 0x00,
  0x00, 0x00, 0x00, 0x00, 0x00, 0x00, 0x00, 0x00, 0x08, 0x00, 0x00, 0x00,
  0xa7, 0x18, 0x4e, 0x39, 0xe9, 0xdf, 0xd2, 0x38, 0xfa, 0xb8, 0x03, 0x39,
  0x61, 0x46, 0x25, 0x39, 0x0f, 0x02, 0x17, 0x39, 0x06, 0xa1, 0x05, 0x39,
  0x6d, 0xe6, 0x27, 0x39, 0x95, 0xc9, 0xfb, 0x38, 0x12, 0x00, 0x00, 0x00,
  0x74, 0x66, 0x6c, 0x2e, 0x70, 0x73, 0x65, 0x75, 0x64, 0x6f, 0x5f, 0x71,
  0x63, 0x6f, 0x6e, 0x73, 0x74, 0x35, 0x00, 0x00, 0x04, 0x00, 0x00, 0x00,
  0x08, 0x00, 0x00, 0x00, 0x03, 0x00, 0x00, 0x00, 0x03, 0x00, 0x00, 0x00,
  0x03, 0x00, 0x00, 0x00, 0x42, 0xfc, 0xff, 0xff, 0x00, 0x00, 0x00, 0x01,
  0x14, 0x00, 0x00, 0x00, 0x84, 0x00, 0x00, 0x00, 0x07, 0x00, 0x00, 0x00,
  0x00, 0x00, 0x00, 0x02, 0x90, 0x00, 0x00, 0x00, 0xbc, 0xfb, 0xff, 0xff,
  0x08, 0x00, 0x00, 0x00, 0x48, 0x00, 0x00, 0x00, 0x08, 0x00, 0x00, 0x00,
  0x00, 0x00, 0x00, 0x00, 0x00, 0x00, 0x00, 0x00, 0x00, 0x00, 0x00, 0x00,
  0x00, 0x00, 0x00, 0x00, 0x00, 0x00, 0x00, 0x00, 0x00, 0x00, 0x00, 0x00,
  0x00, 0x00, 0x00, 0x00, 0x00, 0x00, 0x00, 0x00, 0x00, 0x00, 0x00, 0x00,
  0x00, 0x00, 0x00, 0x00, 0x00, 0x00, 0x00, 0x00, 0x00, 0x00, 0x00, 0x00,
  0x00, 0x00, 0x00, 0x00, 0x00, 0x00, 0x00, 0x00, 0x00, 0x00, 0x00, 0x00,
  0x00, 0x00, 0x00, 0x00, 0x08, 0x00, 0x00, 0x00, 0xa7, 0x18, 0x4e, 0x39,
  0xe9, 0xdf, 0xd2, 0x38, 0xfa, 0xb8, 0x03, 0x39, 0x61, 0x46, 0x25, 0x39,
  0x0f, 0x02, 0x17, 0x39, 0x06, 0xa1, 0x05, 0x39, 0x6d, 0xe6, 0x27, 0x39,
  0x95, 0xc9, 0xfb, 0x38, 0x12, 0x00, 0x00, 0x00, 0x74, 0x66, 0x6c, 0x2e,
  0x70, 0x73, 0x65, 0x75, 0x64, 0x6f, 0x5f, 0x71, 0x63, 0x6f, 0x6e, 0x73,
  0x74, 0x34, 0x00, 0x00, 0x01, 0x00, 0x00, 0x00, 0x08, 0x00, 0x00, 0x00,
  0xf2, 0xfc, 0xff, 0xff, 0x00, 0x00, 0x00, 0x01, 0x14, 0x00, 0x00, 0x00,
  0xe8, 0x00, 0x00, 0x00, 0x06, 0x00, 0x00, 0x00, 0x00, 0x00, 0x00, 0x09,
  0xf4, 0x00, 0x00, 0x00, 0x6c, 0xfc, 0xff, 0xff, 0x08, 0x00, 0x00, 0x00,
  0x8c, 0x00, 0x00, 0x00, 0x10, 0x00, 0x00, 0x00, 0x00, 0x00, 0x00, 0x00,
  0x00, 0x00, 0x00, 0x00, 0x00, 0x00, 0x00, 0x00, 0x00, 0x00, 0x00, 0x00,
  0x00, 0x00, 0x00, 0x00, 0x00, 0x00, 0x00, 0x00, 0x00, 0x00, 0x00, 0x00,
  0x00, 0x00, 0x00, 0x00, 0x00, 0x00, 0x00, 0x00, 0x00, 0x00, 0x00, 0x00,
  0x00, 0x00, 0x00, 0x00, 0x00, 0x00, 0x00, 0x00, 0x00, 0x00, 0x00, 0x00,
  0x00, 0x00, 0x00, 0x00, 0x00, 0x00, 0x00, 0x00, 0x00, 0x00, 0x00, 0x00,
  0x00, 0x00, 0x00, 0x00, 0x00, 0x00, 0x00, 0x00, 0x00, 0x00, 0x00, 0x00,
  0x00, 0x00, 0x00, 0x00, 0x00, 0x00, 0x00, 0x00, 0x00, 0x00, 0x00, 0x00,
  0x00, 0x00, 0x00, 0x00, 0x00, 0x00, 0x00, 0x00, 0x00, 0x00, 0x00, 0x00,
  0x00, 0x00, 0x00, 0x00, 0x00, 0x00, 0x00, 0x00, 0x00, 0x00, 0x00, 0x00,
  0x00, 0x00, 0x00, 0x00, 0x00, 0x00, 0x00, 0x00, 0x00, 0x00, 0x00, 0x00,
  0x00, 0x00, 0x00, 0x00, 0x00, 0x00, 0x00, 0x00, 0x10, 0x00, 0x00, 0x00,
  0xca, 0xcc, 0xaa, 0x3c, 0xd6, 0xa9, 0xa4, 0x3c, 0x6d, 0x2b, 0xab, 0x3c,
  0xd2, 0x57, 0xa1, 0x3c, 0x02, 0x77, 0x9b, 0x3c, 0xee, 0x30, 0xab, 0x3c,
  0x77, 0x9f, 0x9c, 0x3c, 0x3f, 0xbc, 0x81, 0x3c, 0xef, 0xdc, 0x8a, 0x3c,
  0x73, 0x11, 0xb3, 0x3c, 0x25, 0x25, 0xbd, 0x3c, 0x11, 0x11, 0x84, 0x3c,
  0x1b, 0xfc, 0xb6, 0x3c, 0x15, 0x78, 0x83, 0x3c, 0xbe, 0x92, 0x95, 0x3c,
  0x7a, 0x2d, 0x84, 0x3c, 0x12, 0x00, 0x00, 0x00, 0x74, 0x66, 0x6c, 0x2e,
  0x70, 0x73, 0x65, 0x75, 0x64, 0x6f, 0x5f, 0x71, 0x63, 0x6f, 0x6e, 0x73,
  0x74, 0x33, 0x00, 0x00, 0x04, 0x00, 0x00, 0x00, 0x10, 0x00, 0x00, 0x00,
  0x03, 0x00, 0x00, 0x00, 0x03, 0x00, 0x00, 0x00, 0x08, 0x00, 0x00, 0x00,
  0x12, 0xfe, 0xff, 0xff, 0x00, 0x00, 0x00, 0x01, 0x14, 0x00, 0x00, 0x00,
  0xe4, 0x00, 0x00, 0x00, 0x05, 0x00, 0x00, 0x00, 0x00, 0x00, 0x00, 0x02,
  0xf0, 0x00, 0x00, 0x00, 0x8c, 0xfd, 0xff, 0xff, 0x08, 0x00, 0x00, 0x00,
  0x88, 0x00, 0x00, 0x00, 0x10, 0x00, 0x00, 0x00, 0x00, 0x00, 0x00, 0x00,
  0x00, 0x00, 0x00, 0x00, 0x00, 0x00, 0x00, 0x00, 0x00, 0x00, 0x00, 0x00,
  0x00, 0x00, 0x00, 0x00, 0x00, 0x00, 0x00, 0x00, 0x00, 0x00, 0x00, 0x00,
  0x00, 0x00, 0x00, 0x00, 0x00, 0x00, 0x00, 0x00, 0x00, 0x00, 0x00, 0x00,
  0x00, 0x00, 0x00, 0x00, 0x00, 0x00, 0x00, 0x00, 0x00, 0x00, 0x00, 0x00,
  0x00, 0x00, 0x00, 0x00, 0x00, 0x00, 0x00, 0x00, 0x00, 0x00, 0x00, 0x00,
  0x00, 0x00, 0x00, 0x00, 0x00, 0x00, 0x00, 0x00, 0x00, 0x00, 0x00, 0x00,
  0x00, 0x00, 0x00, 0x00, 0x00, 0x00, 0x00, 0x00, 0x00, 0x00, 0x00, 0x00,
  0x00, 0x00, 0x00, 0x00, 0x00, 0x00, 0x00, 0x00, 0x00, 0x00, 0x00, 0x00,
  0x00, 0x00, 0x00, 0x00, 0x00, 0x00, 0x00, 0x00, 0x00, 0x00, 0x00, 0x00,
  0x00, 0x00, 0x00, 0x00, 0x00, 0x00, 0x00, 0x00, 0x00, 0x00, 0x00, 0x00,
  0x00, 0x00, 0x00, 0x00, 0x10, 0x00, 0x00, 0x00, 0xb0, 0x0b, 0x09, 0x3a,
  0x32, 0x1f, 0x04, 0x3a, 0x9f, 0x57, 0x09, 0x3a, 0x2a, 0x75, 0x01, 0x3a,
  0x7a, 0x7b, 0xf9, 0x39, 0x0a, 0x5c, 0x09, 0x3a, 0x38, 0x57, 0xfb, 0x39,
  0x5e, 0x31, 0xd0, 0x39, 0x2b, 0xd7, 0xde, 0x39, 0x0b, 0xae, 0x0f, 0x3a,
  0xee, 0xc3, 0x17, 0x3a, 0x1e, 0xef, 0xd3, 0x39, 0x8d, 0xd2, 0x12, 0x3a,
  0x9d, 0xf9, 0xd2, 0x39, 0x17, 0x07, 0xf0, 0x39, 0xb5, 0x1c, 0xd4, 0x39,
  0x12, 0x00, 0x00, 0x00, 0x74, 0x66, 0x6c, 0x2e, 0x70, 0x73, 0x65, 0x75,
  0x64, 0x6f, 0x5f, 0x71, 0x63, 0x6f, 0x6e, 0x73, 0x74, 0x32, 0x00, 0x00,
  0x01, 0x00, 0x00, 0x00, 0x10, 0x00, 0x00, 0x00, 0x22, 0xff, 0xff, 0xff,
  0x00, 0x00, 0x00, 0x01, 0x14, 0x00, 0x00, 0x00, 0x40, 0x00, 0x00, 0x00,
  0x04, 0x00, 0x00, 0x00, 0x00, 0x00, 0x00, 0x09, 0x4c, 0x00, 0x00, 0x00,
  0x9c, 0xfe, 0xff, 0xff, 0x08, 0x00, 0x00, 0x00, 0x1c, 0x00, 0x00, 0x00,
  0x02, 0x00, 0x00, 0x00, 0x00, 0x00, 0x00, 0x00, 0x00, 0x00, 0x00, 0x00,
  0x00, 0x00, 0x00, 0x00, 0x00, 0x00, 0x00, 0x00, 0x00, 0x00, 0x00, 0x00,
  0x02, 0x00, 0x00, 0x00, 0xa8, 0x53, 0x36, 0x3c, 0x76, 0xff, 0x2e, 0x3c,
  0x12, 0x00, 0x00, 0x00, 0x74, 0x66, 0x6c, 0x2e, 0x70, 0x73, 0x65, 0x75,
  0x64, 0x6f, 0x5f, 0x71, 0x63, 0x6f, 0x6e, 0x73, 0x74, 0x31, 0x00, 0x00,
  0x02, 0x00, 0x00, 0x00, 0x02, 0x00, 0x00, 0x00, 0x10, 0x00, 0x00, 0x00,
  0x92, 0xff, 0xff, 0xff, 0x00, 0x00, 0x00, 0x01, 0x14, 0x00, 0x00, 0x00,
  0x40, 0x00, 0x00, 0x00, 0x03, 0x00, 0x00, 0x00, 0x00, 0x00, 0x00, 0x02,
  0x4c, 0x00, 0x00, 0x00, 0x0c, 0xff, 0xff, 0xff, 0x08, 0x00, 0x00, 0x00,
  0x1c, 0x00, 0x00, 0x00, 0x02, 0x00, 0x00, 0x00, 0x00, 0x00, 0x00, 0x00,
  0x00, 0x00, 0x00, 0x00, 0x00, 0x00, 0x00, 0x00, 0x00, 0x00, 0x00, 0x00,
  0x00, 0x00, 0x00, 0x00, 0x02, 0x00, 0x00, 0x00, 0x54, 0x04, 0xd6, 0x38,
  0x09, 0x6a, 0xcd, 0x38, 0x11, 0x00, 0x00, 0x00, 0x74, 0x66, 0x6c, 0x2e,
  0x70, 0x73, 0x65, 0x75, 0x64, 0x6f, 0x5f, 0x71, 0x63, 0x6f, 0x6e, 0x73,
  0x74, 0x00, 0x00, 0x00, 0x01, 0x00, 0x00, 0x00, 0x02, 0x00, 0x00, 0x00,
  0x00, 0x00, 0x16, 0x00, 0x1c, 0x00, 0x18, 0x00, 0x17, 0x00, 0x10, 0x00,
  0x0c, 0x00, 0x08, 0x00, 0x00, 0x00, 0x00, 0x00, 0x00, 0x00, 0x07, 0x00,
  0x16, 0x00, 0x00, 0x00, 0x00, 0x00, 0x00, 0x01, 0x18, 0x00, 0x00, 0x00,
  0x18, 0x00, 0x00, 0x00, 0x02, 0x00, 0x00, 0x00, 0x00, 0x00, 0x00, 0x02,
  0x20, 0x00, 0x00, 0x00, 0x04, 0x00, 0x04, 0x00, 0x04, 0x00, 0x00, 0x00,
  0x0e, 0x00, 0x00, 0x00, 0x61, 0x72, 0x69, 0x74, 0x68, 0x2e, 0x63, 0x6f,
  0x6e, 0x73, 0x74, 0x61, 0x6e, 0x74, 0x00, 0x00, 0x01, 0x00, 0x00, 0x00,
  0x02, 0x00, 0x00, 0x00, 0x00, 0x00, 0x16, 0x00, 0x20, 0x00, 0x1c, 0x00,
  0x1b, 0x00, 0x14, 0x00, 0x10, 0x00, 0x0c, 0x00, 0x00, 0x00, 0x00, 0x00,
  0x08, 0x00, 0x07, 0x00, 0x16, 0x00, 0x00, 0x00, 0x00, 0x00, 0x00, 0x01,
  0x18, 0x00, 0x00, 0x00, 0x34, 0x00, 0x00, 0x00, 0x54, 0x00, 0x00, 0x00,
  0x01, 0x00, 0x00, 0x00, 0x00, 0x00, 0x00, 0x09, 0x68, 0x00, 0x00, 0x00,
  0x04, 0x00, 0x00, 0x00, 0xff, 0xff, 0xff, 0xff, 0x20, 0x00, 0x00, 0x00,
  0x20, 0x00, 0x00, 0x00, 0x03, 0x00, 0x00, 0x00, 0x0c, 0x00, 0x0c, 0x00,
  0x00, 0x00, 0x00, 0x00, 0x08, 0x00, 0x04, 0x00, 0x0c, 0x00, 0x00, 0x00,
  0x08, 0x00, 0x00, 0x00, 0x14, 0x00, 0x00, 0x00, 0x01, 0x00, 0x00, 0x00,
  0x80, 0xff, 0xff, 0xff, 0xff, 0xff, 0xff, 0xff, 0x00, 0x00, 0x00, 0x00,
  0x01, 0x00, 0x00, 0x00, 0x00, 0x00, 0x80, 0x3f, 0x19, 0x00, 0x00, 0x00,
  0x73, 0x65, 0x72, 0x76, 0x69, 0x6e, 0x67, 0x5f, 0x64, 0x65, 0x66, 0x61,
  0x75, 0x6c, 0x74, 0x5f, 0x69, 0x6e, 0x70, 0x75, 0x74, 0x5f, 0x32, 0x3a,
  0x30, 0x00, 0x00, 0x00, 0x04, 0x00, 0x00, 0x00, 0x01, 0x00, 0x00, 0x00,
  0x20, 0x00, 0x00, 0x00, 0x20, 0x00, 0x00, 0x00, 0x03, 0x00, 0x00, 0x00,
  0x04, 0x00, 0x00, 0x00, 0x4c, 0x00, 0x00, 0x00, 0x2c, 0x00, 0x00, 0x00,
  0x18, 0x00, 0x00, 0x00, 0x04, 0x00, 0x00, 0x00, 0xd0, 0xff, 0xff, 0xff,
  0x19, 0x00, 0x00, 0x00, 0x02, 0x00, 0x00, 0x00, 0x00, 0x00, 0x00, 0x19,
  0xe0, 0xff, 0xff, 0xff, 0x09, 0x00, 0x00, 0x00, 0x04, 0x00, 0x00, 0x00,
  0x00, 0x00, 0x00, 0x09, 0xf0, 0xff, 0xff, 0xff, 0x28, 0x00, 0x00, 0x00,
  0x02, 0x00, 0x00, 0x00, 0x00, 0x00, 0x00, 0x28, 0x0c, 0x00, 0x10, 0x00,
  0x0f, 0x00, 0x00, 0x00, 0x08, 0x00, 0x04, 0x00, 0x0c, 0x00, 0x00, 0x00,
  0x03, 0x00, 0x00, 0x00, 0x03, 0x00, 0x00, 0x00, 0x00, 0x00, 0x00, 0x03
};
unsigned int g_magic_wand_model_data_len = 5040;
